000111100
111101001
111001001
111100001
000000001
000100001
000111001
000010110
000111000
000110101
000101011
001000101
001000001
001000011
000010011
000000111
000000011
000101010
001000010
000101100
000001000
110110111
110101011
110100010
111111000
001001101
000010110
000011000
000110000
000101000
111101001
000001001
111010000
110100110
110100111
111000011
110010101
110010001
110111101
110101111
110101001
111101001
111100000
111100101
000100111
110101010
111100011
000101011
001011100
001001000
110100111
111110000
111010010
000011000
111001011
111010000
111000111
000100101
111110000
111010111
111010010
000001100
111010001
111001110
110110100
111000000
111001010
000001011
111010010
111100010
111001001
000000110
110111101
000000110
110110010
111111000
000010111
111111001
000011111
111101111
111101001
000101001
000010111
000011001
000110101
110011110
110111000
111100010
000011110
000011101
110011000
111100110
000101100
001001100
001010110
111011001
111101100
000111101
001000100
000100011
000010001
111010001
110111010
111101111
000101001
111111111
111110100
110110101
000000110
001001000
111010011
110101111
110110010
000101111
000101111
000001101
110100101
000100000
111110010
000111101
111100010
111100010
111101111
000110101
111111000
110101111
000010001
001010000
000010001
001100010
110110110
110101010
111100001
000101000
000000111
111001100
110000100
111001010
111001101
111101100
000001101
111101010
110010010
111001000
111010001
001000101
000100110
111011011
000001100
110101011
